memory_initialization_radix = 2;
memory_initialization_vector =
11111111111111101110111011100101,
00000000000000111110001011110100,
11111111111111110001101110101101,
11111111111111101100101010011000,
11111111111111010001110111101001,
11111111111111111001100101000000,
11111111111111010111100111110000,
00000000000000101001100110110110,
00000000000001000110011011111100,
11111111111111111000001010010101,
00000000000000110010101101011101,
00000000000000010000101100100110,
11111111111111000001100011100100,
00000000000000011100100010101011,
00000000000000000001100101101000,
00000000000000010001011010010111,
11111111111111110000100110011111,
11111111111111100011011101001011,
11111111111111111011101000100100,
00000000000000100011100110110101,
00000000000000010100000100010100,
00000000000000010101100001010101,
11111111111111111000101111101010,
00000000000000101100101010010111,
11111111111111111000100001001100,
00000000000000000110010101010111,
11111111111111101110000101000110,
00000000000000100111100010001011,
00000000000000011111000111111001,
11111111111111110111011000101000,
11111111111111111100000111010011,
00000000000000110101010000100110,
00000000000000111010100111110111,
00000000000001110100000100101010,
00000000000010111010001110110101,
11111111111111001000000001011110,
11111111111111101111100111110000,
11111111111110001000010010111100,
11111111111111111100100111110111,
11111111111110111010100001001100,
00000000000000110011110010111100,
11111111111110111101101001101110,
00000000000000011001111001000101,
11111111111101110111101011111011,
11111111111110011001010110101000,
00000000000001111101100000011011,
11111111111111101011111011000100,
11111111111101111001011101100100,
11111111111110110111001010001101,
11111111111110001011001101000111,
00000000000001111110000101000000,
11111111111111111011001100111010,
11111111111111000010001011000100,
00000000000001100010101001011011,
00000000000001010011111111000101,
00000000000011110001010000101110,
11111111111110101011101110110101,
11111111111111101010110010010100,
00000000000001110011101000110001,
00000000000001001011110110111011,
00000000000001001011000000001101,
11111111111111010110000100101010,
00000000000011001101101110100101,
11111111111101100100110001010101,
00000000000000100001110101100001,
11111111111111111111010100111111,
00000000000001011001100010000010,
11111111111111010011000000010110,
11111111111110000111100110111111,
00000000000001010111111101011011,
00000000000001001000110000000101,
00000000000001000101100110011010,
00000000000001111000000011010010,
11111111111111111101000010100001;
